TRT-8201-EntropyCalibration2
x: 3c010a14
192: 3ccc5f47
125: 3d22a1e0
126: 3d22a1e0
195: 3cc05a77
129: 3c1fa210
198: 3c6631d0
132: 3d098b33
133: 3d098b33
201: 3c8dbd9a
136: 3c436cdb
204: 3c459f2c
139: 3d0361ec
140: 3d0361ec
207: 3cb4fc03
143: 3c9f7067
210: 3c9ed780
213: 3c81044b
148: 3cde37ec
149: 3cc9c9ae
216: 3c7a05aa
152: 3c30391d
219: 3c75af58
155: 3cacbd87
156: 3cacbd87
222: 3c57872a
159: 3c1d59bf
225: 3c55de01
228: 3bf337f8
164: 3cac6826
165: 3c4e2596
231: 3bdecfea
168: 3b4423f4
234: 3be1e6fd
171: 3c4dd75b
172: 3c3667e2
237: 3c0d1ce8
175: 3bda813e
240: 3c811c2a
243: 3c51f7c1
180: 3ccdc405
181: 3ccdc405
246: 3bec4079
184: 3b847190
249: 3c609436
187: 3d0b2559
188: 3d17b8a0
189: 3d17b8a0
190: 3d17b8a0
(Unnamed Layer* 58) [Shuffle]_output: 3d17b8a0
(Unnamed Layer* 59) [Fully Connected]_output: 3dafcb74
y: 3dafcb74
