TRT-8201-EntropyCalibration2
x: 3c010a14
192: 3d106e20
125: 3d2d1b56
126: 3d2d1b56
195: 3cfbc56e
129: 3c9a2311
198: 3ce78846
132: 3d3c2a83
133: 3d3c2a83
201: 3cf30a63
136: 3cbb73db
204: 3d052ed5
139: 3d3e9386
140: 3d4a07fa
207: 3cafd3fd
143: 3cbde4c6
210: 3ce559db
213: 3c9a5c28
148: 3d13cda0
149: 3d2408b7
216: 3cce1e0f
152: 3ca45a2d
219: 3ccd82cf
155: 3d271919
156: 3d271919
222: 3c98f41b
159: 3c8d59e5
225: 3c903ed9
228: 3c27c0df
164: 3c9f9fbb
165: 3ca0bd7e
231: 3b84fa22
168: 3b813ba6
234: 3c003a2e
171: 3c24945c
172: 3c24945c
237: 3c06bff6
175: 3be04dd6
240: 3c3e3e4d
243: 3c88f788
180: 3cbabfc4
181: 3cd424cb
246: 3b307946
184: 3aff3930
249: 3b07fb32
187: 3c858164
188: 3c858164
189: 3c858164
190: 3c858164
(Unnamed Layer* 58) [Shuffle]_output: 3c858164
(Unnamed Layer* 59) [Fully Connected]_output: 3e20d0dc
y: 3e20d0dc
